-0.4767329455
-0.2874977762
-0.1617231784
-0.1519954031
0.0556338452
-1.0240083693
0.0113968548
-0.4413699639
0.3725673842
-0.5684908183
-0.4628809763
0.6140121875
0.5326635074
0.7778126637
-0.2693929686
-0.0737602926
0.6505296586
-0.0252938734
-0.1771492628
0.7516826635
0.4378204224
-0.7720107085
0.5477914118
-1.2300651002
0.0151230860
-0.4195059757
-0.6843212344
0.0641379703
0.4821394146
-0.1813857454
0.2809618142
-0.0816517985
-0.0456149649
-0.5608102663
0.0075949291
0.6163753656
-0.5792721416
-0.6485246904
-0.0770035678
-0.2890340370
-0.2704779960
-0.0640011395
0.3622253089
0.6630112053
0.3915364434
-0.5528988279
0.1356402923
-0.3635801492
0.6704459282
-0.2196349836
0.0835474660
-0.7494204561
0.4158227390
-0.1837777372
0.5596529330
0.1099467828
-0.2750538838
-0.2368810245
0.4938518532
-0.0392160323
0.0846318496
-0.8759292183
0.2177786621
-0.7601178062
-0.0581465675
0.4767337907
-0.4905099942
-0.7532928429
0.6716386073
0.5789883885
0.0426583216
0.4244662581
0.6171645315
-0.3869157113
-0.0590757901
-0.3385185172
0.2786413598
0.6745794945
0.4493626775
-0.6500642901
0.0793808938
-0.5840321754
0.3404683294
-0.5248843168
0.0362510992
-0.6732050261
-0.0109755501
0.1918708938
-0.2607285260
0.6516621300
-0.1469026424
0.8258955581
-0.6207489986
0.1192361174
-0.1705696823
0.0879049904
0.4037148884
-0.4452829314
-0.4076234790
-0.4259515460
0.5158201362
0.6176552513
-0.5251867006
-0.4605737915
-0.3439113599
0.0027003827
-0.6905719791
0.3923951558
0.4644838670
0.5799857643
0.8606228340
-0.2877595112
-0.6912445053
0.2996250205
0.0327386684
0.1098500824
0.2919199493
0.4766743972
-0.2466570943
0.2400103154
-0.3789367875
-0.3673395361
-0.5093934057
-0.0860303436
-0.3206732238
0.3928922859
-0.0779052597
-0.2551360462
0.6485720277
0.5937288102
0.7047625730
-0.5522649156
0.5910144059
-0.3492951070
-0.9599925215
-0.0827806674
0.2209709465
0.6598764488
0.2043708558
-0.6066763222
0.2628779132
0.5683421759
-0.5208798890
-0.0292273494
-0.8042180014
-0.0570001334
0.4503631122
0.2913952599
-0.4279116521
0.4520229140
-0.6643196135
-0.7821660036
-0.1681467823
-0.3044507222
-0.3657121164
0.2934726532
0.7460783615
0.3087921401
-0.4568619357
0.1095422727
0.9149512795
-0.7508781361
0.1108127422
0.5163710523
-0.2687876284
-0.0482181937
-0.7319979986
0.6821104087
-0.3789855054
0.1440450438
-0.8840452173
0.4931218469
-0.7417351205
0.1737822771
-0.7855698230
-0.3721915270
0.2428254349
-0.5439414133
-0.1301297681
0.7427062267
0.6404221178
0.0721553467
0.2152722658
0.4978487181
0.7231618564
-0.2518767865
0.8224832476
0.3961383335
0.2341315377
-0.5169611577
-0.1748446963
-0.5000884176
-0.6178533539
-0.7131204046
0.4092436175
0.5832220975
-0.1542694671
-0.1753590679
-0.1118112547
-0.5861415867
0.4080994773
-0.4182204526
0.8195636305
-1.0708075011
-0.4596363989
0.5467996457
0.4037629317
-0.3676001769
-0.5413088226
-0.6360559623
-1.4656579907
-0.4717517423
1.5114422111
1.2812801617
-1.2348725644
1.0652770945
1.3487105664
-0.5669993069
0.1158560648
0.7450991061
-1.0342260129
1.5007266219
0.7317962763
1.2191951906
-0.8677116011
-0.5368983584
-0.2217812502
0.2866262011
-0.4106341393
-0.5762060767
0.2120897447
-0.6673129219
0.0908319711
0.5420650969
-0.1574025260
-0.1423989445
0.3372217131
-0.3436418671
0.2270374041
-0.0166249061
0.5724342766
0.1553288534
0.2242233263
-0.5885197471
-0.6288641021
0.4923670095
-0.2994867515
-0.3586577125
0.1509882495
-0.0453691457
-0.0212080068
0.1459346781
-0.3164088597
-0.4000436589
-0.6747985721
0.6514965677
-0.6210115116
0.1621134280
-0.1921307340
0.0914458172
-0.6564231927
-0.7274242663
0.6836475270
0.2659141816
0.1042714158
-0.7085819097
0.0784475206
-0.2213883355
-0.4950026677
-0.7440837601
0.2743888576
-0.2827232132
0.5167689636
-0.3197674757
0.7346218748
0.4724337888
0.3791427931
0.5571598295
-0.2423920017
0.1874318688
-0.3093307041
-0.5149494201
0.4501895133
0.7586247760
-0.5980460162
-0.0752631976
0.6456196914
0.5226459707
0.0160289054
-0.8425232531
0.3789173923
-0.2898093527
-0.2806972542
0.3682890061
0.2942585969
0.5097319536
0.0843805471
0.3075593042
0.2806395060
0.4197128376
0.8630549631
0.2926558381
0.5149645989
0.5457468972
0.0509834560
-0.0072929072
0.8335531532
0.6761108193
0.1540853072
-0.2241887892
-0.1370075143
0.4273764314
0.3897403081
-0.5650838712
0.5407926732
0.1575516970
0.2815090606
-0.7311279246
-0.0408166526
0.2252425057
0.6063923610
0.3532892632
0.1789633958
0.6257315067
-0.5566358543
-0.1290798400
-0.5477580710
-0.3073194933
0.6489312501
-0.3955020471
0.5992387300
0.2356962172
-0.0805100269
0.6115779366
0.2401417161
-0.0313409101
-0.1553596010
-0.5408020142
-0.0515489909
-0.2141491971
-0.4191214149
-0.0391443659
-0.6161440536
-0.5507449539
0.1556952485
-0.3477769460
0.0533323906
-0.8223786825
0.6862235844
0.1431513872
-0.2000507641
0.2728412666
0.0366042810
0.5902294239
-0.3415736592
0.4928585876
-0.4661324922
0.4421101651
0.5755766589
-0.1524405187
-0.0421011305
0.2889966405
0.5481575628
0.3143520910
-0.6379751047
-0.5926129052
-0.1911537927
0.0551047391
-0.4608959597
0.8027772487
-0.3735831555
-0.4419164863
0.2874302987
0.4272388747
-0.0138351301
0.1504131527
-0.4208052358
-0.0852156867
-0.5915803109
0.3065130273
0.5440230736
0.0779111879
0.3294613900
-0.3535901419
0.6439753284
-0.8306769457
0.5914199087
-0.1109478426
-0.5499754043
0.1642746910
-0.3583204972
-0.5126487733
-0.2582066507
0.1115657082
0.5204782609
-0.2955707031
0.7278450765
0.2000135398
0.5524229883
0.6628116765
0.4499979262
-0.5522292542
-0.4018095592
-0.4393379360
0.4691141231
-0.5226057376
0.4949502691
-0.2836368003
0.1806483868
0.4647939280
0.1625983452
-0.0317277689
-0.7982478000
-0.5736307672
-0.1242439152
0.4825003631
0.3197124773
-0.9343812260
0.0100474849
-0.2731596528
-0.4242513565
-0.5270434606
-0.1167426501
-0.2278263026
0.0256559341
0.6169524980
-0.3615125599
0.1565145647
-0.2888454431
0.4690402473
-0.3963926687
0.3311602815
-0.3726571581
0.2762918750
-0.0094405375
-0.3883327202
0.4499239120
-0.4768885406
-0.7618469520
0.1400497575
0.2825374050
0.1927927856
0.4605506967
-0.5112431640
0.1613352320
0.5994943622
0.5618388904
-0.6001282734
-0.4333356529
0.9169723273
-0.8249107596
-0.2484521217
1.4585051713
1.6809028278
-0.8023465355
0.8754585192
0.0118195372
1.5895530846
0.2965204922
0.5242694513
0.8176070142
0.6891590282
0.4833100771
-1.2840356320
1.2863280132
0.2177354369
-0.1306495297
0.1859185978
0.2905283067
-0.0548426778
-0.0100490795
0.0619483283
-0.0021217072
-0.0658167029
0.0618986976
0.0614808921
-0.1108305142
0.0545203601
-0.1021746211
-0.0937090876
-0.8035765464
